node {
  name: "W/initial_value"
  op: "Const"
  attr {
    key: "dtype"
    value {
      type: DT_FLOAT
    }
  }
  attr {
    key: "value"
    value {
      tensor {
        dtype: DT_FLOAT
        tensor_shape {
          dim {
            size: 16
          }
          dim {
            size: 4
          }
        }
        tensor_content: "\000\000\020A\000\000\020A\000\000\020A\000\000\020A\000\000\020A\000\000\020A\000\000\020A\000\000\020A\000\000\020A\000\000\020A\000\000\020A\000\000\020A\000\000\020A\000\000\020A\000\000\020A\000\000\020A\000\000\020A\000\000\020A\000\000\020A\000\000\020A\000\000\020A\000\000\020A\000\000\020A\000\000\020A\000\000\020A\000\000\020A\000\000\020A\000\000\020A\000\000\020A\000\000\020A\000\000\020A\000\000\020A\000\000\020A\000\000\020A\000\000\020A\000\000\020A\000\000\020A\000\000\020A\000\000\020A\000\000\020A\000\000\020A\000\000\020A\000\000\020A\000\000\020A\000\000\020A\000\000\020A\000\000\020A\000\000\020A\000\000\020A\000\000\020A\000\000\020A\000\000\020A\000\000\020A\000\000\020A\000\000\020A\000\000\020A\000\000\020A\000\000\020A\000\000\020A\000\000\020A\000\000\020A\000\000\020A\000\000\020A\000\000\020A"
      }
    }
  }
}
node {
  name: "W"
  op: "VariableV2"
  attr {
    key: "container"
    value {
      s: ""
    }
  }
  attr {
    key: "dtype"
    value {
      type: DT_FLOAT
    }
  }
  attr {
    key: "shape"
    value {
      shape {
        dim {
          size: 16
        }
        dim {
          size: 4
        }
      }
    }
  }
  attr {
    key: "shared_name"
    value {
      s: ""
    }
  }
}
node {
  name: "W/assign"
  op: "Assign"
  input: "W"
  input: "W/initial_value"
  attr {
    key: "T"
    value {
      type: DT_FLOAT
    }
  }
  attr {
    key: "use_locking"
    value {
      b: true
    }
  }
  attr {
    key: "validate_shape"
    value {
      b: true
    }
  }
}
library {
}
versions {
  producer: 26
}
